#version: 0.2
a n
d a</w>
a r
i n</w>
a n</w>
t h
a r</w>
i n
a s
a t
a m
a k
th e</w>
y a</w>
a l
r e
t a</w>
s h
o n</w>
n a</w>
a b
e r
o r
o n
k u
a i</w>
w a</w>
e n
e d</w>
a y
e r</w>
s t
m a</w>
i t
a d
s u
in g</w>
a i
w an
a c
u n
i r
t o</w>
u r
an d</w>
e n</w>
a g
r o
c e</w>
c i
o f</w>
i l
a s</w>
e s</w>
k e</w>
k a</w>
k ar
ku ma</w>
c o
c e
r i
i y
s a</w>
u t
h i
a t</w>
i d
l e
b a</w>
o r</w>
l i
y i</w>
a f
s u</w>
d a
l o
a l</w>
h o
at a</w>
k in</w>
s e
b u
m ai</w>
i s
d e
t s
k as
u m
n an</w>
i s</w>
i on</w>
g a</w>
n e
u s
ce wa</w>
m a
h a
l e</w>
ar e</w>
n e</w>
an a</w>
o u
v e</w>
a w
as u</w>
c h
al l
w h
ak a</w>
p o
wan i</w>
e l
b ay
i ya</w>
b e
th at</w>
p e
g ab
en t</w>
c on
i c
t s</w>
u n</w>
f or</w>
a u
k o
w it
ci kin</w>
ag a</w>
iy ar</w>
t e
am a</w>
s t</w>
d o
t r
su ka</w>
k an</w>
i t</w>
er s</w>
ai d</w>
m at
n o
d i
as h
y an</w>
d aga</w>
s aid</w>
a wa</w>
m o
s o
g o
wit h</w>
w ar</w>
u wa</w>
th e
w e
d u
r a
m ak
i m
z a</w>
i g
wan nan</w>
k am
h an
s an
an g
m ut
w as</w>
p ro
t o
v er
re s
s am
l y</w>
su n</w>
g u
co m
v i
i on
m e
ku n
ar a</w>
p or
r an
k i</w>
t er</w>
sh e
l d</w>
h e</w>
ak e</w>
u s</w>
c i</w>
sh i</w>
in e</w>
ar in</w>
w ad
ay in</w>
y an
she kar
s a
i a</w>
w il
c t
l a
h as</w>
w ata</w>
m an
f or
ab b
o p
wan da</w>
w asu</w>
u k
c h</w>
a j
da y</w>
b e</w>
at ion</w>
an in</w>
o f
hi s</w>
r u
f ar
at t
m asu</w>
k w
er e</w>
c l
p ar
m u
ir in</w>
d an</w>
c or
y ar</w>
in a</w>
en t
wad an
in g
g e
t ak
k ai</w>
h ar
ha ve</w>
b o
ut ar</w>
on e</w>
m u</w>
f e
as a</w>
y o
t ar
k ir
m an</w>
at e</w>
s o</w>
f i
m ar
c in</w>
sh u
s p
y ana</w>
h u
kun g
b y</w>
w at
ro m</w>
m ent</w>
i da</w>
f rom</w>
b i
an e</w>
v er</w>
th er</w>
m e</w>
ion s</w>
ab in</w>
k o</w>
h ar</w>
y in</w>
s e</w>
m in
k ac
bay an</w>
ran ar</w>
a m</w>
z ai</w>
a p
y ar
v e
shu gab
sh e</w>
s ai</w>
u na</w>
m i
d on</w>
2 0
z an
t ed</w>
w or
it y</w>
ak i</w>
s er
p l
k an
at ar</w>
w ur
n in</w>
k al
d ing</w>
a ya</w>
w ar
l a</w>
h t</w>
w as
p res
ne w</w>
ma j
h ak
an i</w>
zan ga</w>
kung iyar</w>
kas ar</w>
c utar</w>
ar i</w>
ac e</w>
a da</w>
un d
j e
i es</w>
y ad
ou t</w>
j i
as t</w>
ag e</w>
z uwa</w>
wh o</w>
um p</w>
t y</w>
s ab
an d
ac k</w>
y e
t are</w>
s on</w>
o l
al l</w>
th is</w>
kas a</w>
k s</w>
j o
f ir
d ai</w>
wadan da</w>
s ak
h ad
al i
su na</w>
bu t</w>
tr ump</w>
k e
j in</w>
ar g
am ma</w>
u l
ir us</w>
h e
ai k
the y</w>
m or
yad da</w>
t h</w>
t er
re d</w>
e x
da u
0 0</w>
w e</w>
t on</w>
p er
lo kac
h er</w>
f it
du k</w>
a v
y ayin</w>
w ac
st r
n at
m as
b ak
20 1
n i</w>
ku m
id an</w>
q u
no t</w>
m er</w>
g w
we e
en ts</w>
wac ce</w>
i ta</w>
hak an</w>
a z
wil l</w>
s ay
gab a</w>
w hi
j i</w>
h i</w>
f ad
c hi
c as
whi ch</w>
w el
u war</w>
sh i
o d</w>
m s</w>
da ya</w>
d am
ash in</w>
us e</w>
s i
ou r</w>
k aw
g as
c an</w>
w o
s s</w>
it e</w>
b in
ar d
t u
t ing</w>
po li
m is
an ce</w>
a in
wat an</w>
t ur
mut ane</w>
f o
shekar a</w>
mor e</w>
m on
lokac in</w>
g re
b ir
t ar</w>
pro te
pe op
ou ld</w>
n una</w>
j ir
i r</w>
ha d</w>
f e</w>
b iy
an t</w>
al so</w>
w ere</w>
w an</w>
peop le</w>
m ag
l ast</w>
ay ar</w>
a y</w>
a h
the ir</w>
shugab an</w>
m ed</w>
m ata</w>
it s</w>
d s</w>
d an
be en</w>
b ar
all y</w>
af ter</w>
z ama</w>
un d</w>
m in</w>
k af
id e</w>
g r
g ida</w>
ce war</w>
yo u</w>
wel l</w>
shekar ar</w>
sa ur
p u
p ri
j u
in sa</w>
in ce</w>
i ve</w>
h in</w>
co un
co l
at ur
ar en</w>
a d</w>
t un
sam u</w>
kam ar</w>
j ar
j am
il l
b l
b ar</w>
at ed</w>
ab u</w>
ab ar</w>
z am
s c
re n
o ther</w>
kar in</w>
k a
ig ht</w>
d is
cl u
b aya</w>
w u
ts ak
no w</w>
m b
l and</w>
k ar</w>
han kal
f in
e t
con t
am ur
w s</w>
on av
onav irus</w>
il e</w>
c r
biy u</w>
b abb
al in</w>
ai ki</w>
af i</w>
z u</w>
y aw
w aj
st e
sh ir
por t
p re
or y</w>
m p
hi m
h aka</w>
f i</w>
c t</w>
ar e
an ta</w>
an t
y i
w i
u p</w>
th an</w>
t ai
sh o
poli ce</w>
l ab
ho me</w>
f ata</w>
bay ar</w>
am p
0 00</w>
ye ar</w>
yan zu</w>
w o</w>
su ke</w>
st o
s ama</w>
pres id
n as
m un
j in
g h</w>
g e</w>
c a
b an</w>
ar sa</w>
z arg
ur a</w>
sh irin</w>
san da</w>
p r
m il
k or
in da</w>
i c</w>
gw am
f am
cor onavirus</w>
com p
ay e</w>
y a
wur in</w>
wh en</w>
w n</w>
vi d</w>
v ed</w>
on g</w>
o l</w>
n ing</w>
le g
kum ar</w>
kir a</w>
i z
bu k
b r
was an</w>
uk ra
ts o
t t
st s</w>
po s
o ver</w>
mat s
l it
ku la</w>
kar a</w>
j er
h el
amur ka</w>
ac t
uk ar</w>
u m</w>
te x
su r
s atur
satur day</w>
re por
k ed</w>
in su</w>
i ce</w>
hu kumar</w>
hankal i</w>
d in</w>
b id
b er
at ions</w>
ab u
1 9
th re
ro u
ing s</w>
in ter
g ht</w>
g an
f ar</w>
at e
as e</w>
as abar</w>
all on</w>
al is
tex as</w>
su n
st er</w>
so ma</w>
sh ine</w>
s ar
p i
g idan</w>
g h
f l
b ack</w>
ay i</w>
an sa</w>
ai kin</w>
ad e</w>
1 9</w>
presid ent</w>
m us
jam i</w>
j ama</w>
in ta</w>
han n
gas ar</w>
dau ke</w>
d ed</w>
ad in</w>
z ang
z ab
w ould</w>
u e</w>
t i
t am
sam ar</w>
s ia</w>
r a</w>
n y</w>
min i
mak on</w>
m y</w>
en c
co vid</w>
c re
bir nin</w>
b ai</w>
am s</w>
wil li
ver n
v ic
ukra ine</w>
the m</w>
t att
t al
sh af
s s
s pe
s an</w>
pe t
p h
of fi
o da</w>
m c
l ed</w>
i al</w>
go vern
fit o</w>
f in</w>
co u
ci k
b an
am e</w>
af iya</w>
ab a</w>
z u
y or
yor k</w>
wh ile</w>
waj en</w>
vi e
tar i
t im
s ide</w>
re n</w>
o k</w>
maj alis
m al
kam f
k wan
f ri
en d</w>
e y</w>
d er</w>
d ak
bid en</w>
b or
att le</w>
ain st</w>
ag ainst</w>
abu bu
wh ite</w>
wadan nan</w>
sh ig
saur an</w>
sab oda</w>
res s</w>
por t</w>
majalis ar</w>
k i
j an
it ies</w>
ic al</w>
f le
f ic
be t
b i</w>
ak in</w>
ab out</w>
yaw an</w>
wor k</w>
un i</w>
t abb
sun day</w>
su l
st ar
s au
p s</w>
o g
ne man</w>
n or
mi c</w>
maj ali
majali sa</w>
l am
j en
i f</w>
hi st
g in
f u
ct ion</w>
co ur
buk atar</w>
babb an</w>
b ang
zang ar</w>
y awa</w>
wu ce</w>
wh at</w>
s ake</w>
ro ber
ri c
ra m</w>
par t
p p
n ed</w>
mut um</w>
kam u</w>
ig h
h o</w>
en ce</w>
e p
d ab
cl ai
ci ki</w>
b abu</w>
an nin</w>
wi th
ts are</w>
thre e</w>
t wo</w>
st ate</w>
s en
ra ho
r s</w>
k ing</w>
in clu
il l</w>
i v
gwam nat
gu da</w>
fir st</w>
fam il
f us
f ac
e l</w>
do min</w>
di re
d ur
cas es</w>
b ur
au str
ar y</w>
al s</w>
yi wa</w>
y aki</w>
w ai</w>
ver y</w>
un ta</w>
rober ts</w>
pet ty</w>
m ai
ko t
kaw ai</w>
k ak
j am</w>
i sh
h ai
gu d
ge t</w>
f il
e v
d y</w>
d o</w>
d e</w>
b li
b al
ash i</w>
ar d</w>
wo od</w>
wee k</w>
uk u</w>
tso h
t ana</w>
st re
sam un</w>
n o</w>
mo st</w>
me mb
ma x
lo t</w>
li e
la un
kas hin</w>
k ad
hist ory</w>
g ur
g anin</w>
c u
b ia</w>
at ing</w>
an no
ab o
a un
us t</w>
t e</w>
t an
re s</w>
r us
pu bli
on ab
mut u</w>
mu him
max well</w>
ko karin</w>
k ay
i b
had i</w>
gr am
for mer</w>
el y</w>
di st
d ai
ct ions</w>
ch ri
ca use</w>
at es</w>
ar wa</w>
ar ar</w>
al a</w>
ac h
ac c
yar je
yarje jen
willi ams</w>
w ak
und er</w>
ts aw
ts arin</w>
t ri
t as
ser bia</w>
se attle</w>
ro on
p an
og le</w>
m asa</w>
lo w
lo c
la hadi</w>
ion al</w>
in to</w>
han yar</w>
go ogle</w>
do g
d abb
cou ld</w>
c ri
c ho
bet we
bay yana</w>
bay an
b ro
b in</w>
am ak
w on</w>
v ard
vard y</w>
um in</w>
to ld</w>
th o
th en</w>
su p
san nan</w>
sab on</w>
roon ey</w>
pos it
pl ay
onab irus</w>
o ut
ne ws</w>
m um
m i</w>
li v
k u</w>
in st
in d
ho use</w>
h um
gram mer</w>
go ing</w>
f fe
f a
et wood</w>
e ar
dur ing</w>
de l
d on
