da 2657
a 1678
ya 930
ta 928
na 886
in 533
an 514
ar 487
kuma 476
i 471
g@@ 445
k@@ 387
ke 382
ba 375
t@@ 374
yi 367
ar@@ 332
d@@ 331
su 325
r@@ 303
mai 302
y@@ 294
o 289
u 287
cewa 271
kar@@ 261
e 259
f@@ 258
sa 254
ne 254
ka 248
wani 243
en 243
l@@ 243
an@@ 242
m@@ 237
s@@ 235
z@@ 234
n@@ 231
am@@ 231
b@@ 230
al@@ 214
h@@ 213
sh@@ 206
cikin 204
ma 204
ak@@ 198
ga 197
suka 196
aka 196
kan 193
iya 192
daga 188
yan 188
i@@ 187
on 183
o@@ 181
u@@ 180
w@@ 177
ce 174
un 173
wannan 171
za 170
wa 168
iy@@ 166
ad@@ 164
ku@@ 161
a@@ 160
ay@@ 159
awa 157
sun 149
un@@ 146
j@@ 146
at@@ 145
in@@ 145
ara 142
ko@@ 139
as@@ 138
ci 137
shi 135
c@@ 134
ci@@ 133
ana 133
ai@@ 132
ts@@ 130
ai 126
ag@@ 124
wata 123
wasu 121
wanda 121
iyar 121
mat@@ 119
e@@ 115
masu 114
far@@ 113
ir@@ 112
kw@@ 112
mak@@ 111
ab@@ 110
af@@ 110
kai 108
arin 107
all@@ 106
mu 106
dan 105
au@@ 105
kas@@ 103
cin 101
ata 99
ina 99
uwa 99
da@@ 98
bu@@ 97
abin 96
ake 95
ko 93
wan@@ 93
yin 93
bayan 93
ranar 92
um@@ 92
har 92
il@@ 92
anin 92
zai 91
sai 90
san@@ 89
ri@@ 87
id@@ 87
yar 86
ma@@ 84
tak@@ 84
kan@@ 82
cutar 81
kasar 81
asa 81
kungiyar 81
zanga 81
ur@@ 80
kin 80
ari 80
yan@@ 79
ani 79
ada 78
zuwa 78
ji@@ 77
tare 77
en@@ 76
kasa 76
dai 76
aj@@ 76
yana 75
sak@@ 75
1@@ 75
wadanda 75
suna 74
har@@ 74
jin 73
amma 73
don 72
aik@@ 72
aw@@ 71
mo@@ 71
ho@@ 70
ru@@ 70
man@@ 70
yadda 70
on@@ 70
irin 70
bi@@ 69
ash@@ 69
duk 69
ama 69
yayin 68
2@@ 68
or@@ 68
ni 67
ki 66
ha@@ 66
it@@ 66
tar@@ 66
gu@@ 66
yar@@ 64
ita 64
gab@@ 64
hakan 64
wacce 64
gaba 63
mu@@ 63
v@@ 61
fad@@ 61
ayin 61
bak@@ 61
kir@@ 61
uwar 60
daya 60
aki 60
ashin 60
0 60
ji 60
war 59
nan 59
do@@ 59
az@@ 59
kam@@ 58
du@@ 58
s 58
is@@ 58
2 56
atar 56
im@@ 55
watan 55
mutane 55
go@@ 55
lokacin 54
shekara 54
sa@@ 53
jir@@ 53
n 53
war@@ 53
nuna 53
tar 53
1 52
ayar 52
dam@@ 52
lo@@ 51
ch@@ 51
hi 51
5 51
er@@ 51
mag@@ 51
bin@@ 51
ang@@ 51
shugaban 51
mata 51
mar@@ 50
mut@@ 50
cewar 50
zama 50
kaf@@ 50
le@@ 50
bay@@ 50
gida 50
insa 49
ut@@ 49
aren 49
hu@@ 49
shekarar 49
kun@@ 48
kamar 48
samu 48
wan 48
baya 47
ton 47
m 47
bar 47
c 47
jar@@ 46
4 46
tsak@@ 46
had@@ 46
so@@ 46
y 46
dan@@ 45
biyu 45
aiki 45
afi 45
wur@@ 45
kar 45
alin 45
ac@@ 45
zam@@ 45
are 44
tu@@ 44
st@@ 44
haka 44
to@@ 44
p@@ 43
shir@@ 43
re@@ 43
bayar 43
anta 43
fata 43
mis@@ 43
tun@@ 42
arsa 42
yanzu 42
d 42
sama 42
suke 42
jin@@ 42
aye 41
inda 41
3@@ 41
kor@@ 41
ban 41
shirin 41
zarg@@ 41
ing@@ 41
sanda 41
wurin 40
ya@@ 40
h 40
al 40
kira 40
was@@ 40
ia 40
fi 39
k 39
kula 39
mats@@ 39
mi@@ 39
han@@ 39
ida 39
amurka 39
kara 39
shugab@@ 39
wasan 39
ukar 38
aya 38
hukumar 38
hankali 38
lab@@ 38
insu 38
tai@@ 38
din 37
asabar 37
sam@@ 37
ra@@ 37
su@@ 37
una 36
ansa 36
aikin 36
fe 36
la 36
ah@@ 36
ayi 36
soma 36
jo@@ 36
bar@@ 36
gidan 36
dauke 35
inta 35
shine 35
l 35
mas@@ 35
jami 35
3 35
say@@ 35
ace 35
adin 35
kal@@ 35
jama 35
ne@@ 35
el@@ 35
gasar 35
li@@ 35
trump 35
hann@@ 34
201@@ 34
r 34
birnin 34
fit@@ 34
9 34
samar 34
makon 34
wat@@ 34
zab@@ 34
ka@@ 33
jer@@ 33
cik@@ 33
6 33
shaf@@ 33
fin 33
afiya 33
shi@@ 33
nas@@ 33
7 33
t 33
age 33
son 33
le 33
tatt@@ 33
fito 33
allon 32
wajen 32
8 32
tari@@ 32
kwan@@ 32
zu@@ 32
ɗ@@ 32
bai 32
kamf@@ 32
abubu@@ 32
and@@ 31
saboda 31
sauran 31
wadannan 31
ura 31
san 31
akin 31
shig@@ 31
majalisar 31
ant@@ 31
idan 31
sar@@ 31
aba 30
babban 30
kaw@@ 30
6@@ 30
5@@ 30
yawan 30
tabb@@ 30
bi 30
tam@@ 30
bukatar 30
neman 30
er 30
of@@ 30
majalisa 30
us@@ 29
po@@ 29
ciki 29
uni 29
sake 29
fi@@ 29
hi@@ 29
wuce 29
ance 29
dab@@ 29
kamu 29
dak@@ 29
mutum 29
man 29
yawa 29
annin 29
babu 29
zangar 29
es 29
as 28
am 28
domin 28
7@@ 28
ul@@ 28
guda 28
raho@@ 28
gwamnat@@ 28
ic@@ 28
tsare 28
ane 28
ra 27
bang@@ 27
yiwa 27
wai 27
dau@@ 27
ashi 27
kak@@ 27
sau@@ 27
gud@@ 27
yaki 27
ce@@ 27
jam 27
kum@@ 27
kawai 27
unta 27
kot@@ 27
tsoh@@ 26
ganin 26
uku 26
aun@@ 26
bo@@ 26
b 26
kashin 26
samun 26
tana 26
kad@@ 26
di@@ 26
ro@@ 26
so 26
lam@@ 26
far 26
arar 25
muhim@@ 25
ge@@ 25
yo@@ 25
mutu 25
ƙ@@ 25
p 25
kay@@ 25
ard@@ 25
tur@@ 25
arwa 25
se@@ 25
shekar@@ 25
utar 25
kokarin 25
ban@@ 25
de@@ 25
lahadi 24
bayan@@ 24
hanyar 24
gan@@ 24
dog@@ 24
tsaw@@ 24
tsarin 24
ine 24
gw@@ 24
bayyana 24
und@@ 24
masa 24
fus@@ 24
kac@@ 24
yarjejen@@ 24
bin 24
dabb@@ 24
umin 23
hai@@ 23
ku 23
sab@@ 23
ki@@ 23
amak@@ 23
4@@ 23
sabon 23
onabirus 23
min@@ 23
wak@@ 23
sannan 23
je@@ 22
la@@ 22
to 22
mi 22
nin 22
dai@@ 22
hin 22
karin 22
min 22
abo@@ 22
gas@@ 22
or 21
she 21
ke@@ 21
tas@@ 21
000 21
mum@@ 21
is 21
iz@@ 21
mun@@ 21
ib@@ 21
land 21
gur@@ 21
ali@@ 21
ran@@ 20
x@@ 20
abb@@ 20
jan@@ 20
gin@@ 20
tan@@ 20
ish@@ 20
laun@@ 20
mai@@ 20
wad@@ 20
bir@@ 19
anno@@ 19
19@@ 19
ren 19
bal@@ 19
mal@@ 19
te@@ 19
tal@@ 18
saur@@ 18
uk@@ 18
new 18
19 18
ju@@ 18
chi@@ 18
ukraine 18
us 18
me@@ 18
bur@@ 18
texas 18
dire@@ 18
hak@@ 18
8@@ 17
v 17
he 17
arg@@ 17
are@@ 17
kung@@ 17
wu@@ 17
york 17
abu 17
pe@@ 17
gre@@ 17
et@@ 16
9@@ 16
covid 16
ere 16
fa@@ 16
ala 16
sia 16
wil@@ 16
ho 16
w 16
tt@@ 16
ol@@ 15
ig@@ 15
babb@@ 15
0@@ 15
won 15
th@@ 15
aga 15
co@@ 15
mus@@ 15
ice 15
lit@@ 15
ny 15
lokac@@ 15
biden 15
00 14
yaw@@ 14
mil@@ 14
wo 14
yi@@ 14
br@@ 14
de 14
austr@@ 14
ram 13
asu 13
ill@@ 13
att@@ 13
fir@@ 13
fl@@ 13
tso@@ 13
gwam@@ 13
ince 13
him@@ 13
fil@@ 13
ter 13
sp@@ 13
ap@@ 12
g 12
ind@@ 12
tr@@ 12
fu@@ 12
sul@@ 12
waj@@ 12
se 12
ol 12
acc@@ 12
serbia 12
ste@@ 12
maxwell 12
roberts 12
fle@@ 12
seattle 12
petty 12
can 11
f 11
x 11
be 11
abar 11
for@@ 11
we@@ 11
etwood 11
grammer 11
google 11
pi@@ 11
lot 11
rooney 11
vardy 11
del@@ 10
cor@@ 10
nat@@ 10
buk@@ 10
jam@@ 10
20@@ 10
shu@@ 10
z 10
ms 10
wit@@ 10
ant 10
one 10
ren@@ 10
fin@@ 9
ks 9
at 9
hum@@ 9
ers 9
mc@@ 9
enc@@ 9
yad@@ 9
dis@@ 8
sto@@ 8
cr@@ 8
ade 8
st 8
hankal@@ 8
el 8
williams 8
ame 8
rus@@ 8
be@@ 8
don@@ 8
ep@@ 8
fe@@ 8
ge 8
chri@@ 8
con@@ 8
white 8
nor@@ 8
biy@@ 8
port@@ 8
ver@@ 8
gh@@ 8
ings 8
inst@@ 7
pu@@ 7
cu@@ 7
ation 7
bor@@ 7
she@@ 7
cas@@ 7
si@@ 7
zan@@ 7
amur@@ 7
th 7
bl@@ 7
ile 7
lie@@ 7
bid@@ 6
ly 6
ty 6
mini@@ 6
ric@@ 6
par@@ 6
pri@@ 6
ca@@ 6
ing 6
liv@@ 6
ent@@ 6
sun@@ 6
vic@@ 6
maj@@ 6
ve@@ 6
ts 6
ed 6
stre@@ 6
no 6
av@@ 6
ti@@ 6
ster 6
ph@@ 5
te 5
op@@ 5
cho@@ 5
sur@@ 5
abu@@ 5
sen@@ 5
zang@@ 5
jen@@ 5
fac@@ 5
ok 5
gr@@ 5
fo@@ 5
house 5
ic 5
me 5
do 5
vi@@ 5
mer 5
amp@@ 5
rs 5
og@@ 5
cl@@ 5
willi@@ 5
ate 5
the 5
sho@@ 4
ch 4
onavirus 4
wac@@ 4
ou@@ 4
news 4
ser@@ 4
pres@@ 4
fam@@ 4
bro@@ 4
my 4
ity 4
por@@ 4
ve 4
no@@ 4
and 4
tim@@ 4
star@@ 4
j 4
than 4
prote@@ 4
pr@@ 4
mp@@ 4
col@@ 4
wadan@@ 3
ate@@ 3
ay 3
dur@@ 3
was 3
ɓ@@ 3
iv@@ 3
port 3
ted 3
ye@@ 3
ams 3
inter@@ 3
vie@@ 3
ard 3
ey 3
cour@@ 3
ary 3
ds 3
ack 3
mor@@ 3
ach@@ 3
ning 3
ss@@ 3
it 3
wor@@ 3
ide 3
ight 3
ps 3
wo@@ 3
vid 3
coronavirus 2
pl@@ 2
qu@@ 2
um 2
red 2
cri@@ 2
igh@@ 2
mb@@ 2
res 2
we 2
rober@@ 2
ber@@ 2
onab@@ 2
had 2
publi@@ 2
ely 2
ong 2
he@@ 2
more 2
com@@ 2
zu 2
wood 2
wel@@ 2
pro@@ 2
gh 2
wee@@ 2
ue 2
home 2
dy 2
ther 2
oda 2
ion 2
well 2
ss 2
poli@@ 2
ence 1
kumar 1
der 1
ir 1
tri@@ 1
part@@ 1
ite 1
pet@@ 1
the@@ 1
gram@@ 1
by 1
sc@@ 1
rou@@ 1
sunday 1
ex@@ 1
hadi 1
tho@@ 1
irus 1
all 1
cont@@ 1
ght 1
comp@@ 1
ional 1
ive 1
wi@@ 1
ʻ 1
end 1
fri@@ 1
ial 1
leg@@ 1
ress 1
ding 1
mic 1
ill 1
wh@@ 1
fic@@ 1
ver 1
betwe@@ 1
day 1
ated 1
roon@@ 1
bia 1
ain@@ 1
king 1
then 1
mon@@ 1
ions 1
which 1
pre@@ 1
of 1
play@@ 1
ear@@ 1
pan@@ 1
ast 1
ws 1
ct@@ 1
od 1
majalis@@ 1
per@@ 1
