the 1317
to 616
in 615
s 610
and 591
a 576
c@@ 551
of 538
s@@ 494
re@@ 483
ed 479
e@@ 443
ing 434
t 412
d@@ 398
g@@ 389
t@@ 373
st@@ 365
e 357
f@@ 346
es 337
p@@ 334
in@@ 330
l@@ 322
m@@ 301
y 299
b@@ 287
o@@ 275
on 262
se@@ 261
le@@ 257
de@@ 248
ar@@ 239
en@@ 230
v@@ 230
er 224
that 222
er@@ 212
for 211
i@@ 210
w@@ 208
ac@@ 204
al 200
r@@ 198
an 197
an@@ 197
al@@ 196
it 191
d 190
said 187
is 186
ers 184
as 182
th@@ 180
as@@ 179
with 178
k@@ 177
ro@@ 176
y@@ 173
ch@@ 171
n@@ 170
li@@ 168
it@@ 165
en 164
con@@ 163
u@@ 163
ad@@ 160
or@@ 160
was 157
ri@@ 155
lo@@ 154
h@@ 151
at 148
ly 147
m 144
at@@ 144
or 143
ci@@ 142
un@@ 141
on@@ 140
ho@@ 139
ur@@ 137
be@@ 134
a@@ 132
ion 130
k 126
le 124
has 124
he 122
po@@ 120
h 119
i 118
his 116
ts 115
l 114
are 112
tr@@ 112
ation 112
p 112
di@@ 110
com@@ 108
be 108
ne@@ 108
ag@@ 107
have 107
su@@ 106
st 105
sh@@ 104
ent@@ 104
o 103
pro@@ 103
me@@ 102
so@@ 102
ar 100
il@@ 100
id@@ 99
is@@ 99
w 99
from 97
by 97
ment 97
one 96
ve 95
ic@@ 91
to@@ 90
te@@ 90
mo@@ 88
do@@ 88
ai@@ 88
im@@ 87
for@@ 87
sp@@ 87
ver@@ 86
ent 85
ted 85
ding 84
ve@@ 84
co@@ 84
ce@@ 83
ity 83
el@@ 83
am@@ 82
bo@@ 81
se 81
pe@@ 81
n 80
ce 80
ap@@ 79
1@@ 79
ma@@ 78
who 78
2@@ 77
ab@@ 77
par@@ 76
all 76
we@@ 76
this 76
ter 76
us@@ 75
fe@@ 75
ut@@ 74
but 74
vi@@ 73
r 72
f 71
hi@@ 71
they 71
ate 70
he@@ 70
ct@@ 69
ex@@ 69
her 69
she 69
red 68
per@@ 68
ks 67
we 67
bu@@ 66
j@@ 66
not 66
ents 65
op@@ 64
new 64
ou@@ 64
qu@@ 64
will 63
th 63
ol@@ 62
c 61
pl@@ 61
cor@@ 60
ay@@ 60
which 59
our 59
0 58
ser@@ 58
ch 57
1 57
ge@@ 57
ver 56
ting 56
ss 55
2 55
aw@@ 54
wor@@ 54
of@@ 53
also 53
man@@ 53
all@@ 53
mon@@ 53
last 52
si@@ 52
la@@ 52
ke@@ 52
more 52
were 52
people 52
their 51
been 51
its 51
mar@@ 51
had 51
ally 51
after 51
z@@ 51
med 51
day 50
ms 50
und 50
fo@@ 50
ig@@ 50
ay 49
du@@ 49
ad 49
coun@@ 49
ies 49
no@@ 49
prote@@ 49
you 49
can 48
4 48
g 48
ds 48
5 48
out 48
ive 48
us 48
me 48
ang@@ 48
ther 47
other 47
ated 47
and@@ 47
x@@ 46
au@@ 46
age 46
now 46
sc@@ 46
ace 46
ty 45
ru@@ 45
um@@ 45
cont@@ 45
col@@ 45
son 44
ight 44
ere 44
ct 44
ul@@ 44
go@@ 44
man 44
pri@@ 43
ant 43
up 43
3@@ 43
chi@@ 43
af@@ 43
police 43
pre@@ 43
ra@@ 42
year 42
bl@@ 41
ha@@ 41
home 41
b 40
ved 40
gh 40
ine 40
res@@ 40
when 40
wn 40
str@@ 40
comp@@ 40
jo@@ 40
fi@@ 40
mp@@ 40
sho@@ 39
act@@ 39
ld 39
ack 39
ir@@ 39
over 39
coronavirus 39
than 39
dis@@ 39
sts 39
leg@@ 39
hel@@ 39
ong 38
saturday 38
ations 38
repor@@ 38
ke 38
amp@@ 38
ked 38
trump 38
ren@@ 37
am 37
ase 37
5@@ 37
pres@@ 37
ning 37
wee@@ 37
att@@ 37
cr@@ 37
fin@@ 37
pr@@ 37
gre@@ 37
back 36
port@@ 36
3 36
rou@@ 36
ince 36
min@@ 36
ght 36
ic 36
ak@@ 35
ill@@ 35
fir@@ 35
president 35
ded 35
je@@ 34
201@@ 34
ate@@ 34
wh@@ 34
inter@@ 34
8 34
would 34
9 34
x 34
cre@@ 34
har@@ 34
sto@@ 34
mat@@ 34
ge 34
spe@@ 33
sur@@ 33
ter@@ 33
ash@@ 33
offi@@ 33
govern@@ 33
od 33
led 33
them 33
mas@@ 33
while 32
6 32
ste@@ 32
6@@ 32
und@@ 32
ions 32
ial 32
against 32
ue 32
ye@@ 32
side 32
ing@@ 31
war@@ 31
ical 31
7 31
7@@ 31
ju@@ 31
fri@@ 31
ities 31
cl@@ 31
der 31
end 31
about 31
yo@@ 31
tur@@ 30
ster 30
work 30
ction 30
ss@@ 30
nat@@ 30
gu@@ 30
ress 30
my 30
fic@@ 30
if 30
sunday 29
ion@@ 29
pp@@ 29
mic 29
ran@@ 29
ned 29
clai@@ 29
what 29
mak@@ 29
ings 29
vie@@ 29
ph@@ 28
wo@@ 28
first 28
als 28
port 28
two 28
part@@ 28
three 28
cases 28
state 28
inclu@@ 28
mini@@ 28
ence 28
with@@ 28
bi@@ 28
ade 28
say@@ 28
ol 28
ti@@ 28
gh@@ 28
tim@@ 28
famil@@ 28
mil@@ 27
ok 27
0@@ 27
very 27
igh@@ 27
ill 27
are@@ 27
ance 27
shi@@ 27
ps 27
get 27
vic@@ 27
wan@@ 27
king 27
ev@@ 27
cour@@ 27
ast 26
br@@ 26
cas@@ 26
por@@ 26
history 26
star@@ 26
week 26
memb@@ 26
most 26
ating 26
ia 26
bor@@ 25
pi@@ 25
ite 25
cause 25
enc@@ 25
4@@ 25
u 25
ctions 25
iv@@ 25
ates 25
former 25
ary 25
dy 25
land 25
ust 25
ame 25
dist@@ 25
lit@@ 24
under 24
tak@@ 24
low@@ 24
loc@@ 24
into 24
ard 24
ali@@ 24
sa@@ 24
could 24
mc@@ 24
white 23
tri@@ 23
res 23
betwe@@ 23
mu@@ 23
pan@@ 23
going 23
sup@@ 23
ffe@@ 23
ional 23
so 23
posit@@ 23
fac@@ 23
publi@@ 23
sen@@ 23
ain@@ 23
fl@@ 23
told 23
during 23
ice 23
ely 23
out@@ 23
ric@@ 23
tt@@ 23
rs 23
ach@@ 22
then 22
000 22
ear@@ 22
well 22
nor@@ 22
cri@@ 22
tho@@ 22
play@@ 22
ton 22
do 22
ws 21
the@@ 21
v 21
han@@ 21
ep@@ 21
mun@@ 21
te 20
stre@@ 20
8@@ 20
gr@@ 20
mus@@ 20
mi@@ 20
no 20
bro@@ 20
el 20
cho@@ 19
9@@ 19
19@@ 19
news 19
fle@@ 19
iz@@ 19
lie@@ 19
clu@@ 19
ould 19
ny 19
cu@@ 19
mb@@ 18
na 18
covid 18
19 18
av@@ 18
sul@@ 18
ory 18
sia 18
fu@@ 18
wit@@ 18
house 18
texas 18
fe 17
pu@@ 17
chri@@ 17
rus@@ 17
liv@@ 17
ko@@ 17
don 17
biden 17
pos@@ 16
inst@@ 16
ram 16
ah@@ 16
williams 16
ide 15
arg@@ 15
don@@ 15
tal@@ 15
ake 15
ukraine 15
york 15
bar@@ 15
roberts 15
lot 15
petty 15
ka@@ 14
maj@@ 14
wi@@ 14
fil@@ 14
mor@@ 14
da@@ 14
hum@@ 14
austr@@ 14
ane 14
del@@ 13
mis@@ 13
gan@@ 13
acc@@ 13
mal@@ 13
de 13
ant@@ 13
wil@@ 13
mer 13
00 13
ho 13
maxwell 13
google 13
ren 13
ta 12
ya 12
tu@@ 12
hu@@ 12
un 12
z 12
serbia 12
grammer 12
etwood 12
seattle 12
rooney 12
vardy 12
atur@@ 11
hi 11
jan@@ 11
20@@ 11
far 11
ma 11
san@@ 11
ina 11
use 11
poli@@ 11
ca@@ 11
ind@@ 11
dire@@ 10
gin@@ 10
bur@@ 10
ura 10
ai 9
kar@@ 9
la 9
ata 9
ala 9
wel@@ 9
ard@@ 9
thre@@ 9
fam@@ 9
cou@@ 9
da 9
nas@@ 9
ki@@ 8
war 8
bal@@ 8
dam@@ 8
wat@@ 8
ban@@ 8
won 8
ida 8
attle 8
dau@@ 8
sam@@ 8
et@@ 7
ra 7
fa@@ 7
bak@@ 7
anno@@ 7
presid@@ 7
yan@@ 7
bet@@ 7
um 7
mai@@ 7
ish@@ 7
ber@@ 7
ams 7
him@@ 6
laun@@ 6
dan@@ 6
tar@@ 6
ile 6
ukra@@ 6
jer@@ 6
aid 6
dan 6
tun@@ 6
ey 6
bin@@ 6
ne 6
aka 5
lab@@ 5
alis@@ 5
tai@@ 5
tan@@ 5
pet@@ 5
allon 5
ump 5
she@@ 5
az@@ 5
sar@@ 5
fi 5
gur@@ 5
abb@@ 4
hai@@ 4
tam@@ 4
kal@@ 4
had@@ 4
kan@@ 4
fus@@ 4
hist@@ 4
ka 4
wan 4
was@@ 4
sa 4
lam@@ 4
abo@@ 4
willi@@ 4
ib@@ 4
ama 4
ara 3
ani 3
ku@@ 3
tas@@ 3
bang@@ 3
jam@@ 3
irus 3
dai@@ 3
sau@@ 3
ts@@ 3
j 3
dak@@ 3
ada 3
vid 3
sun 3
aba 3
kir@@ 3
har 2
mum@@ 2
bai 2
jar@@ 2
iy@@ 2
zam@@ 2
arin 2
ji 2
wa 2
kaw@@ 2
yi@@ 2
dur@@ 2
kw@@ 2
kan 2
gas@@ 2
san 2
ana 2
abu 2
far@@ 2
bli@@ 2
whi@@ 2
tex@@ 2
mut@@ 2
za 2
fit@@ 2
yar@@ 2
ji@@ 2
sab@@ 1
ki 1
mi 1
kumar 1
amak@@ 1
kas@@ 1
ba 1
ban 1
mag@@ 1
abu@@ 1
din 1
bay@@ 1
ir 1
bi 1
peop@@ 1
gram@@ 1
wad@@ 1
kar 1
í 1
asa 1
shine 1
gw@@ 1
ko 1
ari 1
bir@@ 1
hin 1
shi 1
og@@ 1
max@@ 1
wak@@ 1
kam@@ 1
anta 1
shir@@ 1
hann@@ 1
bia 1
aj@@ 1
bar 1
jen@@ 1
uni 1
ga 1
wood 1
